/**
  ******************************************************************************
  * @file    network_soares_data_params.c
  * @author  AST Embedded Analytics Research Platform
  * @date    2025-03-23T16:08:49+0100
  * @brief   AI Tool Automatic Code Generator for Embedded NN computing
  ******************************************************************************
  * Copyright (c) 2025 STMicroelectronics.
  * All rights reserved.
  *
  * This software is licensed under terms that can be found in the LICENSE file
  * in the root directory of this software component.
  * If no LICENSE file comes with this software, it is provided AS-IS.
  ******************************************************************************
  */

#include "network_soares_data_params.h"


/**  Activations Section  ****************************************************/
ai_handle g_network_soares_activations_table[1 + 2] = {
  AI_HANDLE_PTR(AI_MAGIC_MARKER),
  AI_HANDLE_PTR(NULL),
  AI_HANDLE_PTR(AI_MAGIC_MARKER),
};




/**  Weights Section  ********************************************************/
AI_ALIGNED(32)
const ai_u64 s_network_soares_weights_array_u64[1411] = {
  0x4001aa4ec02c375bU, 0x3f5500e23e65eef3U, 0xbf84d007402c213fU, 0xbf937d58bf9241eeU,
  0x3d4bf746bf251558U, 0x3e558819bf968c52U, 0x3d860e36bf5e005bU, 0x3f98ee06befd5a2dU,
  0xbf94b82b3fd40829U, 0x3e447e24c02de9c7U, 0xbdc85c4c3f44fd16U, 0x3eaddeb5beb61536U,
  0x3f3de0b93f72dec2U, 0xbc3a9100bf71b63cU, 0x3e91ccd9bf6310afU, 0xbf631e233dd0e541U,
  0xbef2f8d93f485cd8U, 0xc0420e603e3fcd87U, 0xbf5364ec3ff8d015U, 0xbfa83519bf8ee772U,
  0xc000d0da40290d61U, 0xc05ac80bc0b10577U, 0x3fe9f9f1be12d74aU, 0x40197f0f4017b2a1U,
  0x3ef14342bebc93cdU, 0xbf90f8853e294182U, 0x3e5d91a8bfc1f274U, 0xbf3b27e03fb303adU,
  0x3d90deedc014b0e2U, 0xbf9fe59dbda5d3d8U, 0x3e7a4fd6bfd686c0U, 0xbf48e297bf8345a2U,
  0xbf568d12bfb8bd4aU, 0x3f4d270bbe837df4U, 0xbef42832bf15e0deU, 0x3f295662be9f1227U,
  0xc00b5c5e400fda44U, 0x3fe731a3c02f2097U, 0x3f1ddc923f97943eU, 0x3f3cfbb63ef28526U,
  0xbe532d14bf26ded2U, 0x3e7668e4be8fcfc1U, 0xbebb71a63f0e353dU, 0x3ee81ccdbf8d3863U,
  0x406a03d6c05c6871U, 0x4020d2d5be756724U, 0xc05cdf773f12cf4dU, 0xc0586868c044e694U,
  0x3f2737043fd5e5d2U, 0xc020c4aac0223aefU, 0xbe27a114be159c8bU, 0x3edff05e3ee3ecd5U,
  0x40460ff5c057cf04U, 0xc096fdfbc0c0fae7U, 0x3f350fd6bf87842bU, 0x3f2aa3a73eacbedbU,
  0x3f31edd5bceaf97aU, 0xbf95d3ea3ec48ba7U, 0xbf44c91040339696U, 0xbfe5917fbfa0f1b3U,
  0xbf755c713f1ad0b1U, 0xc041b74ac095be97U, 0xbe96e446bdc8ce6aU, 0xbeeee2f83f480a15U,
  0x3e268d78bf19988bU, 0xbfa52d91beeb241bU, 0x3f1e3fc1bc54f30aU, 0x3d19f8efbf958c8cU,
  0xbf3f0f11400d66c0U, 0x400df422bef322cfU, 0x3fb489f0bff9c5a3U, 0x3f233b8a3e2f0972U,
  0x3e6919b13d6ca51dU, 0xbf6344aebf490bd8U, 0x3f4ef94d3d8ed308U, 0x3f985336bf1449d3U,
  0x40322e4abfddad6eU, 0xc0083867bf9dee53U, 0xbee2e3603ff87e92U, 0xbfbce453bfaa8ad7U,
  0x402e4df9c01190ceU, 0x4087545d40078e85U, 0xbedad41e3e85deeeU, 0xbf3a0a60befed3b9U,
  0xbe254a083ed1b0a5U, 0xbf875c883e4c86c6U, 0x3e85a2123e873986U, 0x3f45b8c1bf54a68eU,
  0x3fe9976ac010bba0U, 0xbfe9d281bfe55b2dU, 0x405c1065402553baU, 0x404f059f4051acb1U,
  0x3e09f54c3e726987U, 0xc03c0fb9c060effbU, 0xbe7eeb623fd51e4fU, 0x3f281a803fc3da01U,
  0x40021097bf7e6980U, 0xbfbe4695c00686d7U, 0xbf4b52893f4da7d4U, 0x3e694e2bbf2c3d2bU,
  0x3f7ab5efbfbef9eaU, 0x40404e58bf4f01b2U, 0x3f1be7213fbce575U, 0x3ee9627d3f2370f1U,
  0xbec289f83f623415U, 0xbf9242303f936f11U, 0xbe7d1e15bf04d1e8U, 0xbf30a61e3f40738fU,
  0x3f406828c031a51dU, 0x3fcdf681bf2f3d17U, 0xbb0d74f53ec454ceU, 0x3f20d3513f522845U,
  0xc0059098401eed43U, 0x403a1c6abf630f25U, 0xbb909c70bf3f9806U, 0xbe81ea38bf304875U,
  0x401c331bc00e0fc8U, 0x408ac7b140b2d598U, 0x3fc42e4dbf5d869fU, 0x3fc9ae523fcd0516U,
  0xbef5d843c0058701U, 0x401e3055401e3ecbU, 0xbd857fefbfa7a420U, 0xbf17fa5dbe9e3750U,
  0xc01799ec4017ad68U, 0x3e26f0c7be94d1aeU, 0xbd88f221bfbaed99U, 0x3d21bc263ed0b748U,
  0x3fd8b916bf2dc0ddU, 0xbfd1deb640527598U, 0xbef1bf53be9c83d9U, 0xbef799203f55874fU,
  0xbed81b4ebf277acfU, 0x40710d63401846c5U, 0x3e12d2323ff64301U, 0x3e3b0f4b3d5a171dU,
  0xbe61a7353fbfcb4dU, 0x3faa69d63f74b9a5U, 0x38f0be0fbfe90033U, 0xbfaff0e6bf0e1fdfU,
  0x3f284ef1bef69da0U, 0xbe57b3ffbf209208U, 0xbf0bbe96bfeeb9d3U, 0xbf8db9483f1b6d09U,
  0x3f182d4fbef20846U, 0x3f82dec5bf09e64bU, 0x3faabafdbfb7348dU, 0xbf543b133f6ff33eU,
  0xbf8185ee3fcbb585U, 0xc02f9891c04977d7U, 0x40009922bf14bb45U, 0x3f18900c3fd72cf4U,
  0xbf9463cb3fbdc0b3U, 0xbfeaeabcc01a18d1U, 0x3f73599140200e41U, 0xbd00ba973f0a9aacU,
  0xbfb1a8813f995ff2U, 0x3ec72ca43f220cb9U, 0xbf1982adbfec4f1bU, 0xbf1a0def3f88bf44U,
  0xc02cc7234037c13fU, 0xbfb3a77dc0274568U, 0x3ef0bf98bfcb5a03U, 0xbf6457a93e44b5c6U,
  0x40384632c04b2c15U, 0xbf3a8758bf0649d4U, 0x3fabfe90c003ec38U, 0x3f108eae3dd35619U,
  0xbf5c6d6f3fc36795U, 0x400eaa2fc0135762U, 0xbff3b26c3f73b2b1U, 0xbfaf6550bfc41735U,
  0xbefec2ea3e502246U, 0xc073757c3ff69a27U, 0x3fc2886f3fe6abbdU, 0x3fc863843fa0a4b6U,
  0xbf2a10383e639e0fU, 0x3e4173253f977fa5U, 0x3ecaaacebfa1c865U, 0xbd615dd0bfb93342U,
  0xbf35353a40010d70U, 0x3e99cd31c041f913U, 0x4015064ebf9cf64bU, 0x400d7cad3fd4811cU,
  0x3e2e06a8be3b10c7U, 0x3e6556f1be9ffd30U, 0x3eec2352bf4929f1U, 0x3f25544fbf37925bU,
  0xbf68a636bfbb2ff9U, 0xbf8a3b813fdfd0f0U, 0x3d967cf7bff7ce9eU, 0x3f34597e3f706c80U,
  0xbf3c38d7bfa25198U, 0xbfca44553df835ebU, 0xbe63f6013f5e8196U, 0x3f349b38bf67760bU,
  0xbf99eeb03fd7c129U, 0xc0f55becc0f39402U, 0xbee9c3f23ed902e1U, 0xbfa5b607bf6969ebU,
  0x408ec6b7c06b72baU, 0x40c4380240ce36b5U, 0xbfa0ef873f2febffU, 0xbfa3e409bf7e891bU,
  0xbfb776723e976048U, 0x4002577cbfaba935U, 0xbeab4004bfad9955U, 0xbe927e353f9780e6U,
  0x3ed47edb3fc516a7U, 0x3fa960863f5200fcU, 0xbf91fab03f053a2cU, 0x3ea5f54fbf465abbU,
  0x3e6a6dfbbf1593c2U, 0x3ee4774abf5950b3U, 0xbecf6e8cbdf7a0baU, 0x3f28cc4fbf893847U,
  0xbf60ebeb3f60c638U, 0x3ec5dad03f673574U, 0xbe53b7443f2abce2U, 0xbec0d8f13f6179f2U,
  0x3e5677d1bf00a997U, 0x3ee7c5cf3f0477fdU, 0xbde5232cbfa7379eU, 0x3f806a103ffd36b8U,
  0xbeac0e9c3fb965d7U, 0xbf01ec6fbf588350U, 0x3f273623bff5dc52U, 0x400009c33f5dfbc4U,
  0xbe9e82ca3f14fbcdU, 0xbe7a583bbf7aebe2U, 0xbf6a8a903f0a2eb1U, 0x3f2d4650bf6730c1U,
  0xbf2e86a1bfd40835U, 0x3dbf451fbf3fe38dU, 0x3f7cf7503fb67550U, 0xbd68a8ee3f82e4bbU,
  0xbf100bb6bf994eb9U, 0xbff0c988bece5858U, 0xbf0f2eab4010895bU, 0xbfe0f854bfbcc106U,
  0x3f22f4193d2eb904U, 0xbfc39286c033346cU, 0x3e5a1b533f84a4e4U, 0x4018eab83fe9ffabU,
  0x3f81c2bf3f45c000U, 0x408d7dc63f88b2e4U, 0xbf7f96c8bfc2ee1eU, 0xbfc555f4bf6a8c37U,
  0xbfbdbd87bea5856eU, 0xbefa97ff4012b40dU, 0xbeb11128bcb0c26fU, 0x3f239174bef4b91eU,
  0xbf2f15783c4ebe6cU, 0xbf696c9abec4a18fU, 0xbed96267bf4ecdf6U, 0xbf4aa7883f1f3402U,
  0x3f741889bf05baa8U, 0xbea2ff76be95fcaeU, 0x3e42bf7a3fbc0d5aU, 0x408126243f57e4ecU,
  0xbfda4aec3fb04784U, 0x3fd8929c3f3d96d6U, 0x4094dd853e8a4507U, 0x4024c45f3de148cfU,
  0xbf7666f53fff662bU, 0x3f940dfe3ece7cddU, 0x3ef072c4c02b2dfcU, 0x3ed85150c03bcb1cU,
  0xc028c4273f1b7a37U, 0xbed362263e022f88U, 0xc096252bbf50a955U, 0x3e8614d93f39f883U,
  0xc0440d1bbeec5df6U, 0x3f8de417bd9f12a6U, 0x3f49b39cbe1220c8U, 0x3e985dfcbe903bf8U,
  0x3fbfe304400eb80fU, 0xbf200087be6994c3U, 0xbfc08c2f3fc14e87U, 0x3fed9a963f196647U,
  0x40d1c8e240008aadU, 0x3b159ed4c089c05eU, 0x3f677173bfdd1c84U, 0xbf82eb4bbfad7393U,
  0x3f0fae14beb75625U, 0x4024455c3d94b359U, 0xbfd8c300bfbcad71U, 0x3fa6b7e73f74a9baU,
  0x3e2b8ba93dca5bdaU, 0xbd8c2e2fbd545af2U, 0xbd9f8c87bdc321f6U, 0x3e1c7c903e00a40bU,
  0xbe2727be3de9996bU, 0x3d6557553e03fbc9U, 0x3c8dbf33bd8fe9f4U, 0x3d8e3167be2caa32U,
  0xbe01a1ab3ca82357U, 0xbe071c983d3f86e2U, 0xbbce8e303bcee725U, 0xbe277044bdb9f4a5U,
  0xbd2d6b933e154744U, 0x3e42718abd2d2d3aU, 0x3e18184c3db422cbU, 0xbcc970c93d7a588eU,
  0xbc09c2af3dd4205cU, 0x3d6d0486bcd5cf01U, 0xbe006b04bcba614bU, 0x3e21928bbdf7168dU,
  0x3e32cc273d8a16c2U, 0xbd8c0d5ebe190c51U, 0x3d2af9943daf397fU, 0x3e2cfeda3c1e7f59U,
  0xbd5392723deb56baU, 0x3cbdb1da3e9ca241U, 0xbdda476fbe190cc2U, 0x3ddeea84bc91dcf8U,
  0xbd62708d3dd7f019U, 0x3b4fc8ed3dc46063U, 0x3cf82186bdf62617U, 0x3c6f29843db85230U,
  0x3d30ef6abdaa391bU, 0x3d153429bd97d0dfU, 0x3ddaec3bbdc6b6d7U, 0x3c58a95e3e71a69eU,
  0xbd1f0e90bc9e6280U, 0x3cff8715bcbedca4U, 0x3e0136e63d1ab477U, 0x3e0c8bfcbd34efddU,
  0x3dc534e73df7f493U, 0xbdec02c53de1b420U, 0xbd88d29f3e19a8c2U, 0xbc27b26cbdbe9b62U,
  0x3b0596c6bdaee479U, 0xbdab62213da20fc0U, 0x3c03a9983d459413U, 0x3cba24bbbc424f88U,
  0xbd96e4893e3822d3U, 0x3e5636e73e35d8ffU, 0x3d345b333e56e33fU, 0x3d3ef48b3cbe38beU,
  0x3dc4bd513e35dfccU, 0x3d1dcab3be0b761aU, 0xbc36016c3d84f6a5U, 0x3e016e283da8b424U,
  0x3d2c4b2e3d43bcc4U, 0x3dcc1178bd9ac385U, 0x3dc090a9bc14ab12U, 0x3d58e8e23d0ac613U,
  0xbd1433b53d38290dU, 0xbd3c5c5d3dfa8cafU, 0x3df5075ebdbf0eceU, 0x3d9e95ab3c1543a0U,
  0xbd62914f3d4b2337U, 0x3c4bec583c840328U, 0x3d94cc5fbd2d9c82U, 0x3d97cad33c82e1f0U,
  0xbdb2d90a3d3771f6U, 0xbe1005043d9314e6U, 0x3d1c13ab3d6e6b3cU, 0xbdf5092e3d3ecaecU,
  0xbd2335193dd7d8a5U, 0x3e2774a93cfa93fdU, 0x3d873c79be094757U, 0xbdade8463c913fcfU,
  0xbd4962a6bd7def9eU, 0xbd939ad03db34c5bU, 0x3d73e411bc8188ebU, 0x3d1b4136bdbc7a3dU,
  0x3c6069583dd2f1feU, 0x3bfae7783d119bebU, 0x3dcfd803bb74fb5aU, 0x3bd49e09bdf399c2U,
  0xbce88e78bc461d71U, 0xbd33e531bd40be52U, 0xbd7909afbdc45410U, 0x3d74fa21bc12c190U,
  0x3cd047f53cc45025U, 0x3d775575bc278e7eU, 0xbc9ca5b8bd1b9b9fU, 0xbd59c4f1bd8a74feU,
  0x3a1d90efbc217af8U, 0xbd5636a93d4b5c0aU, 0x3bb70c653b3ebb88U, 0x39190007bb4ef74cU,
  0x3d053bc83e0a9bedU, 0x3c755fe9bd1e56dfU, 0x3de96f353d026f49U, 0xbcff0088bd73c4cfU,
  0xbdd199963d31d3c4U, 0x3da18cc4bd814de3U, 0x3b93555bbddbd286U, 0xbc15aabe3e0cd6aeU,
  0xbdf7d3293cbd27c5U, 0x3e113357bcaed61dU, 0xbd461d09b98cc39cU, 0xbc9eca6e3e40e939U,
  0x3dd9d6be3d420ef0U, 0x3dc221993d453c49U, 0x3c7c2aa6bdcccff0U, 0xbd8b2240bd126aecU,
  0x3e0daeecbc93f68aU, 0xbce1ada1bd9ebe12U, 0xbd72c602bd406be9U, 0xbc8236793e285031U,
  0xbb69dc63be059106U, 0x3c3130ef3d11d587U, 0xbe1be9ccbc63ced5U, 0x3cdc6873bd6dc818U,
  0x3d9a3c3a3c8507a2U, 0xbc996d643df7d1b5U, 0xbb0306743c0dc19aU, 0xbcf1a33ebd7b229eU,
  0xbd4c5180bdc89566U, 0x3e3074a83e08f056U, 0xbd983d8ebd11ae53U, 0xbd052141bc948596U,
  0x3d840f3abd542082U, 0xbd78153d3df2202eU, 0x3df7d5fbbc4567faU, 0xbd93e0b6ba848946U,
  0xbca3c54ebda026e9U, 0xbd3cfbbfbd7c8efcU, 0xbdabae53bcce04b0U, 0x3e2aeaa63ce71ac5U,
  0x3cfe77b83dbf7839U, 0xbd187eb43d81b97cU, 0xbd6a66163d7982beU, 0x3beb3d7c3d8a22c0U,
  0x3de710ec3de98fe9U, 0xbdc06fb43cf26b65U, 0xbe27f0f53c5fb497U, 0x3dc993e1bd824485U,
  0x3d98e024bd8b34dcU, 0xbddb82d13d937637U, 0x3df71600bd495bebU, 0x3dad73f53d2c1c18U,
  0xbe02d0ca3e191ef2U, 0xbc5b1072bd089335U, 0x39a4dfab3d28a27cU, 0xbdf4212c3bf89179U,
  0x3e1fb08b3dc3da78U, 0xbdc85af6be9513abU, 0xbd8325d33da2effeU, 0x3d335496bd89bb19U,
  0xbcbce5d93d96e363U, 0x3c451b873de403e0U, 0x3bcbcc8f3b44e6ddU, 0x3ccc4b783da7cdfaU,
  0xbce23789bda12b88U, 0x3d849b873d0d4fc4U, 0xbd1dba233dfa6a91U, 0xbc805c51bbca2259U,
  0xbbc84b1d3d4aca5cU, 0x3e3c16fabd57903cU, 0xbe0bbd7dbdbb8191U, 0xbe282cb4bd424ab4U,
  0x3df67a3bbd815878U, 0xbe26f5cfbe08d2a5U, 0xbe24d7a53e1bbcabU, 0xbe598fc8bbc7a341U,
  0x3cc91d42be1726fdU, 0xbc0edd1cbd8f28efU, 0x3e759a9c3e11391aU, 0x3ce1d7133e192288U,
  0x3dfd6bda3e1f0517U, 0xbd3d2ad83c956213U, 0xbe419ab5bd9be86fU, 0x3dcf98edbdd78bdaU,
  0xbc8184d2bd90289dU, 0x3dc24b673aa8dd73U, 0xbcb80f943dd1683eU, 0x3dd24284bd99d3aeU,
  0xbe551216bdf8e139U, 0xbdea1c1d3d8b9532U, 0x3e16e1653e207407U, 0x3da97f4dbd1af41aU,
  0x3c4487d63d84991aU, 0x3cf5ea6dbc192639U, 0xbd4a1255bdacf6c2U, 0x3d9f32013d931d43U,
  0xbcecb603bd11146cU, 0x3de884893d097ecdU, 0x3c9ac0473d287cfdU, 0xbd3ea0603b558dabU,
  0xbdc973b33c2cc413U, 0x3c0eaf83bc5e5000U, 0xbcdd6a383d44e33bU, 0x3d65cac4bdfee8f6U,
  0x3def1074bd81ee07U, 0xbd90eb303e02cc79U, 0xbc91ef793dececbcU, 0x3d95ba8abe2d52c7U,
  0x3dace5bebdf63301U, 0xbd9ab2eabdc2b69eU, 0x3bc494803d805d7fU, 0x3e146d33bcb9715cU,
  0xbdfdf96abe01ae22U, 0x3e093e623d21fd63U, 0xbb8117023dd067b7U, 0x3db15124bcea938eU,
  0x3d924d283c8929c4U, 0xbe0ef436bd923a50U, 0x3e1c70523d111a74U, 0x3d07184abd565d5bU,
  0xbdc4c880bd85d099U, 0x3e0e03633d23e888U, 0x3dfcb4a9bcd29756U, 0x3d5ba51bbd07454fU,
  0xbd5df622bcaa5d1bU, 0xbe33b38fbd924caeU, 0x3dfa43ae3dc9989cU, 0x3d690dd63db94bafU,
  0xbd8e10713df0d306U, 0x3c6814c43de6999fU, 0x3dc61844bd05d5f3U, 0xbdcf38fabda19038U,
  0x3d837e073d60e86eU, 0x3da4cc363d8fdab0U, 0xbe5a5fac3d259ec7U, 0x3daab9e53e157b37U,
  0xbd357b89bd873c59U, 0xbe25c629bcc9db7cU, 0xbe1dd17c3d46eaacU, 0xbd7d1493bd951a72U,
  0xbcd9954f3a0916d2U, 0x3d2275ddbe06ca34U, 0xbe39f7a7bd58dfdaU, 0x3d0ace363d869863U,
  0x3e77c67fbe2422b8U, 0x3d1495a6bdc949c8U, 0x3d8e002d3d0caf97U, 0x3b7916783dcfe677U,
  0x3d2a3703bc9d4a7bU, 0xbe8eb1af3e71b1a8U, 0x3da76726bce3f96dU, 0x3cd0a4883d84a0f4U,
  0xbe80c6ecbe3fab8eU, 0x3e20061bbdcab35fU, 0xbd673f803dee01e2U, 0xbdc521a7bdd7bae1U,
  0xbddf28073ccfcaffU, 0xbd3dd3c73e347e4aU, 0x3e23f9b2bdf68d6cU, 0xbe0a22983d8d2668U,
  0xbd0e2c213c570729U, 0x3c35f1b8bd80aa83U, 0xbe082695bd9ffc57U, 0xbcebb9f93d5bec1cU,
  0xbddf7760bc9a3ef2U, 0xbc50ea1f3d586dd6U, 0xbd35fbf4bcc0ba8fU, 0xbdbc4645bdce3f77U,
  0x3d7efef83d236e6fU, 0xbc62d668bce9c442U, 0xbd3859873cb270f6U, 0xbd9cd6a4bd2e3933U,
  0xbad9a4ccbd980757U, 0x3db20f87bb285883U, 0xbb5c56193d5fa02fU, 0x3d9795133e1140bdU,
  0xbd1f0ca03e0d1278U, 0xbc98e0123d07ceadU, 0xbc06861a3d19ec5dU, 0x3db028cebe015d05U,
  0x3d2c6c30bd2a88b8U, 0x3e4efb1cbd1d43deU, 0xbdcd6f8a3d36152eU, 0x3db6e146bd10b66bU,
  0xbca4a645bda1d883U, 0xbd011bc13dd5746fU, 0xbce0e7f73da040d9U, 0xbc1755b9bd4a841cU,
  0x3d943565bd4c6d43U, 0x3de855b8bd38ba3dU, 0x3d9e55ae3c598a7cU, 0x3bd3f4723e043172U,
  0x3df96ab7bd501fd5U, 0xbe27a5fcbcf2b90bU, 0xbe17d7b8bdf4e069U, 0x3e1c99fdbcc3fbb2U,
  0xbe07650f3d97cbd2U, 0x3e183ed3bdc4f871U, 0x3e1a0e54bc531a61U, 0xbe2524213e02699dU,
  0x3c6c4d413aca93caU, 0x3d51afb4bd2fdeffU, 0x3dfea61b3e26be68U, 0xbdd9a5273d6cf6bfU,
  0x3d90cfc53e0f471eU, 0x3dc7be4c3d524764U, 0x3e488e8ebde80d3cU, 0x3d9253213e59c97fU,
  0x3c8c74053df33951U, 0x3cf7cce9bdcd3a7dU, 0x3bc06d353dfa66fdU, 0x3e0e5c50be4f6d7eU,
  0x3e1e94f7bda1137cU, 0xbd47779cbd57386fU, 0x3d8395333d80fc8dU, 0x3e6a51de3d0fe959U,
  0xbe3f17363e18ee30U, 0x3e2f0ebd3e345ec8U, 0xbe05b1643dbf3ad3U, 0xbb65f35abc760584U,
  0xbde42aca3d82124bU, 0xbde9d78c3da72294U, 0x3de464afbe14c937U, 0xbc9ea65d3da7b30aU,
  0x3dfe7c5cbd374eddU, 0xbcb0172fbd3e20e7U, 0x3d60d808bdb2b1ccU, 0xbb83c49e3d5c5c80U,
  0x3e2f7aefbd39b554U, 0xbe027efebd642b44U, 0x3c0428d93d98a9daU, 0x3e06f4d83d5613f9U,
  0xbc1f3bfebc3753a2U, 0xbd3e89883cda8e8cU, 0x3c1d5403bd0cf220U, 0x3c9de1a2bd576cb8U,
  0x3cbcabd93d9fe8d2U, 0xbceee6f23d3a1dc4U, 0xbdd7e8263b861d01U, 0x3d96804ebd998aa1U,
  0x3d368032bde2f4c1U, 0x3bc2b97a3c69fa97U, 0x3d0489c13c950dbaU, 0xbc1958463e35203aU,
  0x3ba369193dde3e0fU, 0x3b2afe853dc5cf17U, 0x3dbaccca3d0fd566U, 0xbc9193013d84dbe6U,
  0x3e29af643d743cdbU, 0x3ce67004be4d6c9bU, 0x3a43c007bd783844U, 0xbd0cda713d80ff3aU,
  0x3d74633abcabf81bU, 0xbd843ba5bbb4283bU, 0xbd9a7b773e05e5abU, 0x3da04322bd8f0584U,
  0xbce549b2be0513bbU, 0x3de5da533cb8000aU, 0x3dcb4c44be0dc434U, 0x3dceed163e1e31caU,
  0xbe125374bd04d37eU, 0x3d471cf3bd4cd42cU, 0x3e489fdb3c32caf7U, 0x3e23554ebcaa24f3U,
  0x3d18b1ba3d628740U, 0x3cf64504bb87b0c9U, 0x3ddf9f27bdd8dceaU, 0x3d1e3133bcde7330U,
  0xbda6a3563e298303U, 0x3cd7e8203df700e0U, 0xbd0479eb3d53d214U, 0x3d8910d93d9c3909U,
  0xbe19fc6ebd0d12b3U, 0x3c029092bd8762b5U, 0xbd1ef20a3e31eaefU, 0x3e57d5c83d387e87U,
  0x3dfde7b33e5fb6adU, 0xbe012f14bc1f9929U, 0x3e378a643df7085bU, 0x3dd1445e3d766796U,
  0x3e038ec83d781ac3U, 0x3de3783ebdda6727U, 0x3d9617093e1fe004U, 0xbc926ea3bc9106b1U,
  0x3e17da953becf4cdU, 0x3b95810d3c4e1321U, 0x3d4f6a42bc8b23e6U, 0x3d3f3423bd9c77e1U,
  0x3ce3d30ebde14bfdU, 0xbcefd3493d7cd6cdU, 0x3de24d8fbd3063feU, 0x3dd09f673c8e2718U,
  0xbd6ff9ec3ae86155U, 0x3a0436443bd0594eU, 0x3e3e37f43d86e84fU, 0x3def0ac9bdcff360U,
  0x3d009fc63c937491U, 0x3d1bf50b3d2c315cU, 0x3d1a02763d3d2011U, 0x3ddc6907bd81c6e1U,
  0x3d73b1463d6ad98eU, 0x3d20be373d61218dU, 0xbdbe7b823c5574aaU, 0x3d6dc4cebcc52b22U,
  0xbdc671553d6e18c8U, 0x3d4de17b3bf34741U, 0x3e1d7cb33d139515U, 0x3d9c76153d598edbU,
  0x3d9df8643db3328cU, 0xbd9ad2e0bd9378a9U, 0x3d4c0e443cbaed12U, 0x3c9060e53d470244U,
  0x3e15e04abaa2ddd8U, 0xbc46f3a0bdee69cfU, 0x3cba4091bcd017a4U, 0x3d8197a33c741bf1U,
  0x3ca96a2cbcc43f27U, 0xbda43024bd1572b6U, 0x3db2d0213bab968cU, 0x3d3d74f63cc8d387U,
  0xbd5e5c8cbe182703U, 0x3d2610613de8817cU, 0x3deaa9f03dbcd3e6U, 0x36e93e203cb70855U,
  0x3e1ec482bd6481aaU, 0xbdbb97893dc4c1dfU, 0xbd329c27bd6d0cb4U, 0xbdc2f49dbd8ffe86U,
  0x3d26b3113d8e14b2U, 0xbd029b7fbd3f0b27U, 0x3d6cabf7bdb56946U, 0xbdfadfcbbdcda4ddU,
  0xbca253c43d8f7a10U, 0xbd745e043ba52d08U, 0xb9c53e193e1d978dU, 0x3de32882bd5582daU,
  0x3c24214cbd4e778bU, 0x3cc3932f3db61977U, 0xbce46416bd555482U, 0x3de6fb293d47881aU,
  0xbc5bffa33b6fe59dU, 0x3dc9b1ebbd696d2eU, 0x3cb179d83998c7eaU, 0xbcbfc5d83af8073bU,
  0xbd90302c3d3bdd9eU, 0x3cee5d9d3c3ef0c1U, 0xbcea2f54bd42f2c9U, 0x3d13331bbb59cc51U,
  0x3db50cbc3c445f5fU, 0xbdd8174fbe0ff390U, 0x3d2792083d100f06U, 0x3c5aafd7bdb06df2U,
  0x3e01bd81bcc30384U, 0x3ca0108db83615daU, 0xbddf153fbd150b2aU, 0x3ccfc7183dce83e8U,
  0xbd53a978bd0f213cU, 0x3da62d1dbd880c8dU, 0xbc2e6792bbf72446U, 0xbdd7b2d73ba1f466U,
  0xbd8544323c96def3U, 0xbd3be3a53d9a498fU, 0x3bad29e0bc278a90U, 0xbdc4436fbe106b5bU,
  0x3d49ecd4bc4e685fU, 0x3beedee53d77b107U, 0x3e29bb6dbdb2a506U, 0x3d2ecaa13dedd09cU,
  0x3dde91503d2aa908U, 0x3d29eabdbb129482U, 0x3a8fd2583d69726fU, 0x3d878e15bdd9185eU,
  0x3d88a8573d18822eU, 0x3deef5453d16bbfeU, 0xbd96e2b83d11109eU, 0x3d25639e3d25c95cU,
  0xbda655c43da02ad4U, 0xbba5626b3e5d05bcU, 0x3d9390323dfe8d3eU, 0x3d44f9313d4879c8U,
  0xbd8564e7bc80af1aU, 0xbc1db30f3d9a98d2U, 0xbd17817fbda7cbd0U, 0x3c5048c2bd5b8b99U,
  0xbd06093fbcb3d9d0U, 0x3d490e2fbd264d6cU, 0xbddb936abd74bec5U, 0xbc818f99bda79e40U,
  0x3e6159573d9553b2U, 0x3d491c21bd000de9U, 0x3d9782fcbdfe0f42U, 0x3d0b4b9e3e0f7886U,
  0xbe292dc7bdc2b1b7U, 0x3cc8d395bdcfb419U, 0xbcce56393e27d736U, 0x3dbc686d3e79c281U,
  0x3e1603acbdb1234eU, 0xbdaa5a79be0c7c83U, 0xbdbb12f43c97204cU, 0xbdab45583daee7caU,
  0xbdcb0709bb21ecd3U, 0xbe0022bdbcc83899U, 0xbd80d89dbdac850fU, 0xbe133daf3d1e0809U,
  0xbc34faedbdc33893U, 0xbdb147493daf4faaU, 0xbddce9f8bd91628bU, 0x3d4f12a3bdb17f6eU,
  0xbe595a6dbe09be33U, 0x3d6a2fd43dabdbfaU, 0x3d2454c7bd6a334eU, 0xbdbc865c3d8246a0U,
  0xbcdbe49ebdde4a7aU, 0x3c6837c3bb504b7dU, 0x3ca969d13df2cc90U, 0xbd709a13bdcb818fU,
  0x3df48f05bc2b41c2U, 0x3d292c9fbd81efccU, 0xbdb388f7bc9af19bU, 0x3d4b23633d86e1a9U,
  0x3cf7c9a43cee03e0U, 0x3dbc042dbd20b3d1U, 0x3cd492183c9fbf98U, 0xbc790f8cbd6b7416U,
  0x3e031d333d1954eeU, 0xbdabc8d63dea6024U, 0x3ae994cd3d3e461fU, 0x3db94d96bdff05b8U,
  0xbd9bd2c03d8e2c10U, 0xbcd637333d5004c2U, 0x3b7cab6abcd9a081U, 0xbcb4d6de3c6113e4U,
  0x3ca365d73db475bfU, 0x3d7252c43dd71d1fU, 0x3d2453943dd2c68eU, 0x3da09cbe3ce84a73U,
  0x3d8cd6453dd39ad5U, 0xbe17757fbdbb5732U, 0x3d97639f3e0c6ccdU, 0x3bb6950e3d311d92U,
  0x3da20f85bd33ed55U, 0x3dbd6cdb3b993cc1U, 0xb8bd63193ccb7ea6U, 0x3d307c263c171bcbU,
  0x3d970dfc3df5ecd0U, 0xbe1b54a3bc96146eU, 0xbd54ac7ebd65d545U, 0x3d5c3b56bd2864f5U,
  0x3e0673023da7aafaU, 0xbd47f80c3cec6df5U, 0x3e2ea537bd7fbda9U, 0x3c855c673df62c50U,
  0x3d2909913e2251d3U, 0xbe1ee10b3de160f4U, 0x3dccea8e3e630dddU, 0x3ceff3d63d4cbeeeU,
  0xbd6fbfcdbc64038fU, 0x3a5fe7dc3d8862f7U, 0x3c1aebabbe195f35U, 0x3c08f7103e20a4f4U,
  0xbddc511f3dea7873U, 0x3d8acfd03d8f08f2U, 0xbde18a683cf67e64U, 0xbd71a1fdbe0df005U,
  0xbe4dd89dbdeac4a8U, 0xbcd363cdbcc2eac3U, 0x3d615e70bcab4db6U, 0xbda250c13e281f08U,
  0x3d30810f3d3ea54cU, 0x3ddce2b53d79f5d6U, 0xbb79a2b43dc1ac34U, 0x3d93fa753d2ea4d0U,
  0x3ea2a9e93c62ce4cU, 0xbe05213cbe6a7223U, 0x3e156b02bdda27efU, 0xbd9c6f44bbcc9a2dU,
  0x3d3d890f3dcb9407U, 0x3c9d48103c7b9841U, 0xbe03445b3e569a7eU, 0x3e1ad545bc81bac9U,
  0x3dc19198be062ddeU, 0xbd31bbf2bcd15336U, 0xbb4a36bf3d4bd7e0U, 0x3d132ae43ccdc03dU,
  0x3d4477c73d0b6131U, 0xbdb66ff2bc905111U, 0x3e39cf1e3e0d283fU, 0xbc0e93273dcf83feU,
  0x3e3bbfaa3e1448b5U, 0x3c8b5caf3c894ae5U, 0xbd8aece1bd54d39cU, 0x3d9fe2c7be13e6f1U,
  0x3d2c51b5bd807a4dU, 0xbd34938fbd25e1e9U, 0x3cb5f2fa3daf629dU, 0x3d2052bc3d623bf6U,
  0xbe0bf334bd4f87baU, 0x3df837f3bc16f7d9U, 0x3e01ef0ebc8a04d6U, 0x3db249c7bdc36667U,
  0xbcdff6ec3dfabb79U, 0x3d82947dbdb49918U, 0x3e1eea8c3cf0cdbbU, 0x3d464f49bd9daa62U,
  0x3ded0f24bcfb83a0U, 0x3d683bd9be4c5316U, 0x3e0772f53dfa99dcU, 0x3da870c9bd75652aU,
  0x3d9b1e973e051c8dU, 0x3ab0eeb8bd461368U, 0x3d02c8873dd453fbU, 0x3d6a85ca3e0b957fU,
  0xbd6d779e3e3d9feeU, 0x3ca4a4be3cab26efU, 0x3c4bfd09bda4ededU, 0xbdbf2e0dbd0a4d0aU,
  0x3e06217cbd4a29f8U, 0x3e1f6780bd15bb7eU, 0xbdcf2f64bcc7f2f9U, 0xbd9ce55ebc11ed57U,
  0xbdf4d54e3b79bcc3U, 0xbbd644acbcc2e7edU, 0xbd3826373e29c059U, 0x3e03e2d6bcd2cb94U,
  0x3b4b5285bc95eaf8U, 0x3dfd90eabcc374efU, 0x39bb6f17bc8c8622U, 0xbd17434a3cdd6873U,
  0x3d3ff035bd706dd7U, 0xbd5ff2e4bd30ed16U, 0xbdc060523c977329U, 0xbd7849663deab680U,
  0xbd1f7d18bde78419U, 0xbcff4eddbd3719d2U, 0xbd772dd7bd9c2c75U, 0xbd89c9a8bd5ec9d5U,
  0xbe29e402bd958b05U, 0xbd33d2da3d9d3455U, 0xbd5d9b54bcf08e5aU, 0xbcffd7ea3c835e74U,
  0xbbde02b3bdeab3bdU, 0x3d0803e7bd77df44U, 0x3c9d351cbc6cb6d0U, 0x3d4356d8bd7da679U,
  0xbe07c7993d833f4eU, 0xbd9304bfbe3a6168U, 0xbd83523e3e192104U, 0x3d15cc813c84114eU,
  0x3dd1f9e2bc42e545U, 0x3bb78f2e3ddcf87eU, 0xbe444ab6bddab638U, 0xbdd424b43d8c736dU,
  0xbd162fccbd48b842U, 0xbdb4fbf1bdd4a260U, 0xbc08af833e334b13U, 0x3c758d92bd26b243U,
  0x3de57559bc41c97bU, 0x3d5784613dbf166aU, 0x3dcc9d6a3e0f7bfcU, 0xbd2392b53e08482eU,
  0x3e2330303da0e9bdU, 0x3c8a6749bd9928b2U, 0xbc5c5973bce7b86cU, 0xbdb0332ebdc05ad5U,
  0xbd88c0e83c7c808cU, 0xbcc715fcbdadb717U, 0xbd23f10d3e050e92U, 0x3dd4a3ae3cb48734U,
  0xbcaf04b83dafd827U, 0x3beb346b3e9bb423U, 0x3c8512933d8acc3eU, 0x3d90a0b6bd8ce6a6U,
  0xbc6034eabd7b113eU, 0x3d926d3d3d3f00f1U, 0x3e1f8138be2446b7U, 0x3d226a923dcbb28eU,
  0xbd6b0351bd8f523dU, 0xbbf7d5b03b28c572U, 0x3de20f76be125d36U, 0x3d05b3a23d8d8047U,
  0xbdaaa32ebd91a946U, 0x3dc98d353c2ce784U, 0x3df0ec733e0ae317U, 0xbd4c04e5bd361de5U,
  0xbdd91ba6bda755d1U, 0xbde19ff53cbdb72cU, 0x3d6ae96ebcc954e3U, 0x3defe8653c18849eU,
  0x3ddc0b1a3cee8470U, 0x3e144bdb3d8ee076U, 0x3ca74293bd6056bbU, 0x3ae6b16a3c43f06eU,
  0x3deb10f1bd898eb0U, 0xbcb5d6c53c8b9273U, 0x3de4fd8bbd82dfc6U, 0x3be01d563dd55a21U,
  0xbcf81a8d3e034b2bU, 0xbd8aa523bdccea6eU, 0xbdada6dcbdbe7ad9U, 0x3d7ba5e63d3bbcf5U,
  0x3dabef31bde68552U, 0x3dbfc3a63b555230U, 0xbc8e0e02bd3dda90U, 0xbbd2b11fbda61510U,
  0x3d02a4923cde7e28U, 0x3dcfe2b13dae76a3U, 0xbb13beedbd189657U, 0x3df71c07bdd2e3e7U,
  0x3e23c5b13c122a6dU, 0x3d08323a3e1f6db6U, 0x3d5e6430bded3d91U, 0x3d4a05523c1b5a6aU,
  0x3deaa2133db22e49U, 0xbe04f4643d7e66d7U, 0xbd979f453b259d5cU, 0x3d259a01bd7698d6U,
  0x3e2e78563d507c8aU, 0x3d8131303bca261bU, 0xbde14b60bde36e5dU, 0xbbd01b7bbe329b6cU,
  0xbd8edfadbdfe133bU, 0xbdaeaf9b3cb0924eU, 0xbd5967423e3b5a09U, 0x3daac7b2bcd228aeU,
  0xbd6d0c59bd51a547U, 0x3d8d5db9bc9a1c68U, 0xbd1120703dc566c0U, 0x3e13dd59bd8df124U,
  0x3d08113d3dbbf095U, 0x3d23ba533dc14689U, 0x3e572b3a3dbe4d58U, 0x3c8bfbd33e206f35U,
  0x3dda8733bd81e7d1U, 0x3dab909cbe49fd5eU, 0x3c2ff7013e07cbb8U, 0xbd19f81cbd072aceU,
  0x3c91d7b33dd6dcd2U, 0xbd1d95a7be0068f1U, 0xba8d5699bd888612U, 0xbd0287523d195f09U,
  0x3d982ef63d93a5b7U, 0xbbcb776c3c8540b8U, 0x3e2f2d7a3d9c0d38U, 0x3d7a2434bcfa9114U,
  0x3c84b0843df25f26U, 0x3daa05ba3dce7577U, 0x3e5476a5bd1a47ffU, 0x3e55348d3dea6227U,
  0xbdd786fa3ddccec3U, 0x3e4ddb2dbb5a2f7bU, 0x3d1e0659bd8419dfU, 0x3e17de783dba3560U,
  0x3e077d903dadc446U, 0x3e2b9bb7bd2a8e4cU, 0xbdc6355fbe316930U, 0xbc21d4d7bd812e76U,
  0xbca298d03db9bc73U, 0x3d513cfd3d790e46U, 0x3dfcd57d3da70a8bU, 0xbad6f51f3d17390fU,
  0x3d69df4cb9a1b5d7U, 0xbdc6d515be22675eU, 0x3c88de11bdda3119U, 0xbd529a693d4bee7eU,
  0x3e67ccd73d65bacbU, 0xba82bf0f3da335c0U, 0x3dac6d6e3df4a5e5U, 0x3d83c398bd81d946U,
  0xbc0b66853c471889U, 0x3ca214e13cc6af18U, 0xbde25ed33d8ffd47U, 0x3dabd4cbbd1779fdU,
  0x3e03420dbe033515U, 0xbba000dc3db7d3c1U, 0xbe01cd54bdd0f817U, 0x3bef61343da1cf50U,
  0x3d20dcb43d0de2abU, 0xbd3b9f963d826553U, 0x3d0582dcbd17148fU, 0xbd6a6c76bcbe84dcU,
  0x3dbb3370bd317d67U, 0xbdc2135b3e0c4c36U, 0x3dd79d5b3d9e7e9dU, 0xbe096b3dbe413391U,
  0xbc90990ebc78792dU, 0x3d5689cb3d5ddabcU, 0x3e2d6cf03c6ce28eU, 0x3b8a57453d189bacU,
  0xbd88859f3d7c300aU, 0x3d3d47653e29f724U, 0x3cc4ad6d3dc68151U, 0xb98fba8bbd14b235U,
  0x3d1830f43d737403U, 0x3b35a9be3e14d680U, 0x3d956b4f3dad1bfdU, 0x3e0cfe603d84286dU,
  0xbd72321d3c00264cU, 0x3dbd44b9bc6b789cU, 0x3b9a0a66bd23be51U, 0x3d96f9653d2b5499U,
  0x3e2801413d00039bU, 0xbdd26e45bd1655eeU, 0x3e1fb8d03d2e80bfU, 0x3d3b4e923dc9ac64U,
  0x3da97153bdc75ad5U, 0xbd9908e93ddcff7dU, 0x3e1d2e1dbc4cb9f3U, 0xbdc17fadbddf4212U,
  0x3dff36bf3c9f9d53U, 0xbe1207c53d244e32U, 0xbe204a5f3dcba878U, 0xbcb04302bd8355c6U,
  0xbc694517bc3cd7e1U, 0xbda138773c3fa732U, 0x3d05479bbdb54a68U, 0xbd045115bd9cb10aU,
  0x3d587140bd847b6aU, 0xbcb51e6bbdc1f6b7U, 0xbe1fb7533e112383U, 0x3dbcc132bd9af966U,
  0x3d88b1bdbe34deabU, 0xbd3699b43db85af2U, 0x3b4d6d483d038c2cU, 0x3d1855c8bce24671U,
  0xbdbe81df3e1aef59U, 0x3c25494d3d9aff0aU, 0x3c9ed7c83c0123b2U, 0xbdd35d1fbd51e048U,
  0xbd7f7bd1bcc85270U, 0x3db1d772be47209aU, 0xbc377981bd178db3U, 0xbc5efa353d82e24dU,
  0x3d40d1dbbd92044cU, 0xbd85f0b13cfff6baU, 0x3e09165e3c0430c7U, 0xbcd5d95bbd1df8d3U,
  0xbbd6a1263da566c5U, 0xbd55cfcabd601d83U, 0xbda57b523c1554a1U, 0xbc85c550bd6165dcU,
  0xbda69b743cefb458U, 0x3e1c45dcbcfbacb0U, 0x3dfac9403d21a133U, 0x3dc5ac8d3e3cc73aU,
  0xbd5228273d9099bdU, 0x3e5182f8bd05e049U, 0xbd9014153dfa674eU, 0x3e06a7db3ded9373U,
  0x3e167fb1baef4be4U, 0x3bb8f033bda1e8b6U, 0xbd547ae9bda367e8U, 0x3cd520b1bd883c2aU,
  0x3d9b042bbbf66532U, 0x3dc58069bdb87faeU, 0x3d5a65f13d8efdd7U, 0xbd086f31bc88b559U,
  0x3d945e843b9f0eceU, 0x3cd000c0be18cb70U, 0xbc9c9112bd617618U, 0x3e0a04293cbd72daU,
  0x3e304371bd4a72aaU, 0xbca97d01bc68be52U, 0x3d3629883c9706ddU, 0x3ca636ec3d9a948eU,
  0x3d10046dbe06d1a4U, 0x3d5ff35e3e50e2b4U, 0xbe241d623dbad0f7U, 0x3d32d6cfbc663e06U,
  0xbc9db7c2bdacee77U, 0xbd22b40dbd90cb51U, 0xbc263ea43e7636faU, 0x3e218a1e3e354b86U,
  0xbe555fc23dfbbd08U, 0xbd88c8a33decd746U, 0x3d0f92283e162ab6U, 0x3dabfdec3e145918U,
  0x3de8abec3de349c7U, 0x3e2c4fd6bdb4ed61U, 0x3e008ed73cf96f3cU, 0x3df748e63e0047e4U,
  0xbe131f1ebcb3badbU, 0xbd169d9d3cb12274U, 0x3e076f5bbe31f01dU, 0x3cdac4ab3dfc4b9aU,
  0xbdbc27fd3e8f42caU, 0xbcd93cd33cb5fbd9U, 0x3c92f3b3bdb3e6c5U, 0xbc92a92e3d962b15U,
  0x3d52a003bdc60920U, 0x3e80835abe30ea76U, 0x3c8fa12b3d0a23e9U, 0x3d90cb3bbc8c18acU,
  0x3d6548023cb900bfU, 0xbe12586cbd81d6a3U, 0x3e06a4d4bc88122cU, 0xbba481fc3e1ab70cU,
  0xbd4b701f3db3eb39U, 0xbcc6f1723e0857b3U, 0x3c4af02abdb93715U, 0x3cea02113e17f116U,
  0xbd2971b2bdb63e8cU, 0xbd1b270d3ceda109U, 0xbda82f5cbe1f62baU, 0xbc78489dbce5bf6aU,
  0x3d6eaa1f3d00c98aU, 0xbd18f9663d097535U, 0xbe2e9e8fbdb7a499U, 0xbdd9b49b3d453e15U,
  0x3d5059c1bd633933U, 0x3d1eabfcbd319dc4U, 0x3db2fb423defb9f4U, 0x3d400897be004dc9U,
  0x3e17dd9b3cc188b2U, 0x3ddfeebc3cf30ea5U, 0x3e19cb943d7ad972U, 0x3d0af021bc053a45U,
  0x3d35d145bbb95929U, 0xbd8f39163d297fd7U, 0xbddc6cc2bc143936U, 0x3d73b0463c089194U,
  0xbc99a26ebd09204dU, 0xbca7dc493e11267dU, 0xbc715ccbbda7980bU, 0x3d61838d3d954264U,
  0xbe8c32f7bd5b055aU, 0x3dcc4fe13e0cf708U, 0xbd64af36bcf47e4aU, 0x3be946183df4db96U,
  0xbd653c0ebd8898aaU, 0xbc29ea413c98c8d6U, 0x3e1e121f3bb46b89U, 0x3d2776923c3b2708U,
  0xbdbdcd03bd219f0fU, 0xbcbe72163e20f33cU, 0x3be1e71e3e5667d2U, 0x3d853b693d4a6e77U,
  0x3d6821b9bdb9236cU, 0xbd6e48d93b33ee8dU, 0x3e3515d93dbfd459U, 0xbd1e61e43dec7a0fU,
  0xbcd37eefbd0e4ffeU, 0x3e408ceb3e1257a7U, 0xbda7fff4bd352fbfU, 0xbc9ce7963d4422afU,
  0xbe0dad483bd30166U, 0x3c9852163cf1d8dbU, 0xbd60d5d7bd8d6b3fU, 0x3ce998893bc43b35U,
  0x3d2817233dc46b68U, 0xbd31d1f3bdd45bfcU, 0xbce036a6bcf63ceeU, 0xbd72a496bd8d4e36U,
  0x3e0fbc463cab7e66U, 0x3dbe23dfbd4fa214U, 0xbbcf9355bc857361U, 0x3dbb1cae3df9b398U,
  0x3d3e0d023e19f397U, 0xbdca55ddbd9b01fcU, 0x3e13f0f4bd27831aU, 0xbd1792dc3bf8e4e3U,
  0x3dc844b8bd1405d7U, 0x3e0fc4533dc48906U, 0xbd28cac03d7b9967U, 0xbd8e925cbde345fbU,
  0x3d1c64db3c044453U, 0x3b61ebc23d980b48U, 0xbe44b06cbc26fe17U, 0xbd15d109bbd7920aU,
  0x3e309d5e3cf63aa8U, 0xbcfb412a3d1e3719U, 0xbe608a8cbe1072a1U, 0xbe353d7b3c9ca546U,
  0x3d3ea1f8bd291665U, 0xbdd87f06bda95565U, 0xbda2b047bdd1784dU, 0xbde99a6fbe176aebU,
  0x3d9e3bcbbdbc56adU, 0x3d7332f53d4da0eeU, 0x3deec6953e06516cU, 0x3c2bc175bc575605U,
  0x3e336b713d72e80eU, 0x3d86650ebd4c3843U, 0xbdf97136bc8ed935U, 0x3d655df83dc929eaU,
  0xbd6216e93d850e86U, 0x3dfaf8333c4b127dU, 0x3df4e89a3d67b8dfU, 0xbd4bc9a3bd9fe12fU,
  0xbd303f67bda8d8efU, 0xbd7982acbcfdeedbU, 0xbd964c8f3de28b74U, 0xbd63ced33da201d4U,
  0xbd56ec1c3dc98ecfU, 0xbd12aaf6bdd729b6U, 0x3e2fe242bc40e131U, 0x3d648e623d397906U,
  0x3d57881c3c052971U, 0x3b638537bcf9ffd2U, 0xbd437e2c3d2b9a7fU, 0x3d9ffff83dac0fedU,
  0xbe1e4c69bd57573dU, 0xbe201f0f3cf66cd6U, 0x3e5b07ebbd34cbb6U, 0xbd4c1a603d588e0dU,
  0xbd98886c3d5abeb8U, 0x3da393143e24378bU, 0x3ca6fb2e3cf132deU, 0x3e532ff33db7a534U,
  0xbe52d82abd9d0c26U, 0xbd250a323dc596f6U, 0xbc3e18a5bddcd4b2U, 0xbd7cfaabbcad7da7U,
  0xbce8abd43e33d048U, 0x3d9dadd1bd532e22U, 0x3dfcefc2bdb19265U, 0xbd7b5baf3e2196e0U,
  0x3c703e313cfe7465U, 0x3e5b96f0bca6629eU, 0xbdab2fd23d62c398U, 0xbcf871e8bad272d0U,
  0x3d9998813e0a2baaU, 0xbe15172abd13be6eU, 0xbd9f60b03dfe53a3U, 0xbbf7cfa03d51543cU,
  0x3c81fa413d874655U, 0x3e1d2dc8bc0bd633U, 0xbdf07569bd09929eU, 0x3c95e23a3d96178cU,
  0x3e49488c3db45eceU, 0x3d6e8031bd9b650cU, 0xbd540dc2bd46e283U, 0xbcb834353d110401U,
  0x3d8d71a23c43d84fU, 0x3e32bed53d7a1c9dU, 0x3c51e94e3e32b7c1U, 0xbc2d10323d6bcbfbU,
  0x3df2a59c3e3dd15fU, 0xbbdeb0ea3e1e915bU, 0x3d8b8bb6bd8ba8e2U, 0x3dfa80813de2167cU,
  0xbccf2a073dffba19U, 0x3e074b7f3dc93eaaU, 0x3cc1f568bd0716dcU, 0x3d167870bdbe622cU,
  0x3ec1946f3eb9021bU, 0x3e293f97be0d2a53U, 0xbe860c98be8e1134U, 0xbeb9ee3c3dff32edU,
  0x3ea613ccbe0b82ebU, 0x3eb154e3bd4b87a9U, 0xbc85dded3da623baU, 0xbdfe82373e75627bU,
  0x3ea162b33e5917dbU, 0xbe0c581d3d9eef63U, 0x3e84de7dbe72aac7U, 0x3da8bc013e15e348U,
  0xbed2546b3e60efe4U, 0x3eadb09e3e42267dU, 0xbd0c097b3a85b6f8U, 0x3e88e9ecbf1054d2U,
  0xbeaac660becbf695U, 0x3ec0f36c3e1aa61bU, 0xbeb0e95e3de56f7cU, 0xbecca4eebec89517U,
  0xbe925126be818323U, 0xbe9d9f293b169c14U, 0xbe329deabe87a6ecU, 0xbdf202d43dbac5c8U,
  0x3eef93bdbef84bfaU, 0xbd76da7cbebf95eeU, 0xbd3e8befbcbd37acU, 0x3db15cdcbe2169b5U,
  0xbe999280be53a319U, 0x3eb56f273e830837U, 0x3dc90b2fbe2e12e5U, 0x3eeb7b713e397ac5U,
  0x3e6fabbebea09046U, 0xbe4765cdbe1ae4c6U, 0xbefbe4463e31af95U, 0x3e1d5d063e9d5b45U,
  0xbeeb332cbec8d9b6U, 0x3e9563f73e9c64b3U, 0x3eb3e0273ce42dc6U, 0xbe61ef94be444f54U,
  0x3e982b583dd3680aU, 0xbe622e703df63c79U, 0x3e12200ebf085f6fU, 0xbe7e15373eb0d59eU,
  0x3e8ce7e03e32b75dU, 0xbef87c48becc4a98U, 0xbea0dc0e3e5712c0U, 0xbb375501bd333dfdU,
  0x3e3941db3e9ab9c2U, 0x3db6bdc0bd092ba5U, 0x3eb3b746be99290cU, 0xbe1002653e8718fdU,
  0x3ecf67d13e536d12U, 0xbe31d464bec15cbcU, 0x3e4b9c33becb0b31U, 0xbe96cd2b3edf3500U,
  0xbee86fb93c711d71U, 0xbda8410ebe4a7e81U, 0xbe6996aa3e907f51U, 0xbf10d8a03d8b7ad4U,
  0xbe02f1c43ea55cafU, 0x3ed81526be717109U, 0xbeaec7a03ef0fbe3U, 0x3e65348b3eb172d6U,
  0xbf0ce99cbd7c29caU, 0x3ebe8316bee18a8cU, 0xbe26aeafbe91ec6bU, 0x3edd8f23bea7a000U,
  0x3d07749ebe8c6b3fU, 0xbf187752bd1731faU, 0xbe9fa3c5be9d9d18U, 0x3eea1e213e036bb5U,
  0xbe578e4ebda62513U, 0x3eb9cf1dbf1ea038U, 0x3e1f342ebc3a3d11U, 0xbd1e86d5bec89c0cU,
  0xbe6c1e15bea6e770U, 0xbeacca3d3e62157bU, 0xbeb6ccc33ea61f64U, 0xbe9cd5353caf7edbU,
  0xbcedcc073e476298U, 0xbd83c8ddbccd7b43U, 0xbc3127eaU,
};


ai_handle g_network_soares_weights_table[1 + 2] = {
  AI_HANDLE_PTR(AI_MAGIC_MARKER),
  AI_HANDLE_PTR(s_network_soares_weights_array_u64),
  AI_HANDLE_PTR(AI_MAGIC_MARKER),
};

